3F
02
00
00
3F
02
3F
03
3F
00
3F
00
3F
3F
00
3F
00
00
3F
3F
3E
01
3E
00
3F
00
01
00
3F
3E
00
3F
00
3F
3D
3F
3F
01
02
00
3D
3F
3F
00
00
01
00
3F
00
3E
00
00
3E
00
3F
00
02
3F
3F
00
3F
3D
3F
3B
3F
00
3E
3F
00
3F
00
01
3F
3E
02
00
01
39
00
3F
00
3D
01
3F
03
00
00
01
00
01
3D
3F
00
00
02
01
01
00
00
00
01
00
3F
01
00
01
03
3F
03
02
3F
3C
02
01
01
3D
3F
06
00
3A
01
0E
04
3D
3D
02
00
00
0D
00
3E
3E
3E
3F
3C
3F
00
00
00
3F
3E
00
02
3D
3E
3E
00
01
00
00
3D
10
3B
3F
3F
3F
3F
3C
01
3C
3E
02
00
3F
3E
3F
02
00
3F
3F
3F
00
01
3D
01
05
01
00
00
00
3F
3F
3F
01
3E
00
3E
00
00
05
00
3F
3F
03
3F
01
3F
3F
3D
3D
00
3E
3E
3E
00
3E
00
3F
01
00
3E
00
3F
3F
3F
3E
00
3E
00
00
00
00
3F
00
00
00
3F
3F
03
3F
3F
00
3D
00
3F
00
01
00
00
00
00
00
00
3F
3F
3F
00
3F
00
3E
3E
00
3F
00
00
01
3F
3E
3F
3F
3F
00
3E
00
3E
3E
04
3F
00
00
00
01
00
01
3F
00
3F
00
3F
00
00
00
3F
3F
00
00
00
3C
00
3E
3D
00
00
01
3F
00
3F
00
00
00
3F
3E
02
00
3E
3F
3F
04
00
01
3F
02
00
3D
00
3F
3F
3F
00
3F
01
02
00
01
01
3D
3F
00
00
3E
00
3F
01
04
01
3E
3F
3F
00
3D
01
00
3F
0D
01
00
03
3E
3D
00
00
01
01
3E
02
3F
3F
03
3D
3F
01
02
00
39
02
3F
3E
3C
3F
3E
3D
02
01
00
38
00
3E
01
00
3D
3B
04
00
3D
3E
05
3D
00
3E
3D
3E
05
06
02
3E
04
00
00
3E
38
06
29
03
02
06
3D
3E
3B
35
02
3F
03
3D
08
03
3E
00
39
00
02
01
3F
00
09
04
00
02
3B
3F
01
09
2A
06
3D
01
3D
02
07
3C
3A
01
38
06
3F
02
38
3D
3C
03
00
3E
3E
30
3C
3C
3A
32
00
01
00
00
00
02
3C
01
3D
02
3F
03
37
00
3F
00
09
03
3F
02
3F
04
05
3E
3F
3F
02
3F
00
3F
01
3E
01
01
04
3F
3D
00
0B
01
04
3F
3F
00
3F
3E
3F
3E
3F
04
00
3E
04
02
01
03
3F
3F
3E
3E
3F
00
00
3F
00
3F
00
3D
00
3F
00
3F
3B
02
00
00
00
3E
3E
00
03
00
3F
3F
00
02
3F
02
00
2E
3F
3F
3C
3F
3C
3F
3A
02
3F
00
3F
3F
01
02
00
01
02
01
00
3D
3D
3D
00
06
01
01
3E
01
3C
3F
3D
34
3F
00
00
00
3E
01
3D
00
01
00
0D
07
01
00
03
3E
01
35
01
3B
00
00
00
3F
01
3C
3F
00
02
3F
01
01
00
06
3F
3F
03
05
04
3D
3E
3C
3D
06
3F
05
3E
3C
3D
00
01
00
3C
3F
05
01
02
3D
01
3B
01
3F
05
3D
36
02
3D
00
05
01
03
04
39
10
3E
0A
3E
04
3F
01
02
05
39
3D
3A
02
3D
03
3E
3B
34
03
3B
33
3E
06
2F
06
3B
28
08
36
0A
0B
0D
3A
39
08
0D
3F
3D
05
2D
3F
39
0A
02
05
38
10
0C
3E
00
01
37
36
00
03
1D
38
33
3A
06
34
07
3F
38
1C
3A
07
0A
2C
02
37
3F
0C
3E
09
09
02
3E
35
05
08
06
17
3C
3E
3E
39
00
3B
3E
32
0D
3F
03
3D
04
3D
00
03
0E
3D
3C
34
39
3E
3F
08
38
01
01
3C
35
04
03
01
3D
04
3E
03
00
3A
0C
3D
00
02
3E
03
3F
02
07
3D
3D
03
3F
05
3D
3C
3F
3C
00
06
00
00
3F
00
00
00
3F
3F
39
01
3E
00
00
3C
03
02
05
01
02
03
3F
3F
3D
3F
3E
02
00
3E
00
3F
00
03
07
01
00
00
01
01
3A
01
01
00
3F
3F
01
3D
04
3F
3E
3F
3F
3F
3D
00
01
00
3F
00
01
3D
3F
3F
01
00
00
08
00
3E
3F
3F
01
01
01
3F
3A
01
01
00
3B
00
01
3F
3F
3C
3F
3F
3F
3E
3F
00
02
3F
3F
3F
3E
01
03
3E
3E
3E
3C
3E
3E
3D
3F
3F
14
01
00
3F
3F
3F
01
3B
3F
3D
00
00
00
3F
3F
39
3F
02
3F
02
3D
05
3E
00
05
38
00
3C
3A
00
39
00
02
00
00
3F
00
00
00
3F
03
3F
04
00
01
3E
3B
04
02
0A
01
37
01
04
3E
3F
3A
3C
3B
00
3F
3C
3B
00
3C
39
02
3E
3F
3F
3F
00
02
3E
03
3E
00
02
05
39
3C
07
3F
03
3A
15
00
3D
37
01
3A
3F
3C
3B
03
01
00
3F
3A
27
01
04
03
00
30
3A
09
3D
3B
02
05
00
3E
01
07
03
3F
08
01
3D
01
0B
02
3F
00
3F
00
00
3F
00
3F
3C
00
3C
39
06
00
3F
3E
3E
07
00
3E
01
3C
3F
01
01
00
03
00
00
01
3E
37
01
37
03
3B
3F
01
3F
03
0A
04
3F
3E
3F
00
3F
01
3D
00
3C
3F
02
3F
00
00
00
3F
00
3C
3F
00
09
3F
00
00
3E
04
3F
3F
3F
00
3F
02
3F
3F
3F
3E
3F
00
3F
3F
3E
3F
3E
3F
01
04
3F
03
3F
02
01
3E
00
3D
01
3B
01
00
00
3C
3F
01
00
3F
00
3F
02
3E
00
00
00
3F
3F
3E
3F
3F
00
3F
00
3F
3F
3F
00
3F
03
3F
3F
3F
00
3F
00
00
00
3F
01
00
01
01
3F
3F
3F
00
00
3F
00
3D
3F
00
3E
3F
00
01
3E
3F
00
3E
00
02
3F
3E
3E
00
01
01
03
02
3F
01
00
01
00
00
3F
01
3F
3F
3C
00
3E
00
3F
3F
3F
04
3E
00
3E
3E
00
00
3F
3F
3F
3E
00
01
00
3E
00
01
00
02
3F
3C
3E
03
03
3E
00
04
00
03
01
01
3F
03
00
02
3D
01
02
3C
3F
3E
3F
3D
3F
3F
3C
3D
00
00
35
01
01
01
3D
3F
02
05
31
01
01
02
3E
04
00
01
05
01
00
02
3F
04
13
3F
00
3E
3E
18
02
00
39
03
3E
00
3E
3F
01
00
3E
3F
3F
3F
02
3F
00
00
00
01
00
00
00
00
05
00
00
3F
00
3D
3E
00
01
01
3F
3E
3E
3F
3D
3F
01
00
00
3F
3E
3E
00
02
01
00
00
00
02
00
00
3D
3F
3C
3B
3D
00
00
00
00
3F
3D
01
3F
00
00
3F
00
3E
00
00
01
3F
01
00
3F
39
00
00
3F
01
3F
3F
00
3F
3F
3F
00
00
01
00
3F
00
3F
3E
00
00
3F
00
3F
3F
3D
00
00
01
01
3E
00
3F
3E
01
01

