01
05
1A
03
02
03
1D
1A
00
04
00
1A
00
1E
1C
1D
1D
00
1C
03
1F
02
01
1F
01
04
00
02
1C
05
1F
03
01
00
1F
1A
19
01
1B
1F
1F
1A
01
18
00
02
06
03
01
1C
03
1E
1E
1A
04
07
07
06
1C
00
1E
03
1F
1C
07
19
00
01
1D
1E
00
1A
1D
00
1B
02
03
00
02
01
1D
04
04
00
01
1C
1B
07
1B
1E
01
1E
07
01
01
1E
00
00
02
03
03
04
1E
01
1B
1B
1E
1F
02
04
1E
03
1F
1D
1D
01
1E
02
1F
1A
03
18
1E
1F
1E
03
1E
1B
1D
02
1A
02
00
18
03
18
00
00
04
02
03
1C
1D
01
00
19
1E
1D
03
1F
1F
03
00
01
1F
02
1C
1F
1D
02
03
1C
1E
03
00
02
1F
1F
1A
1F
01
1D
00
01
1F
00
17
18
02
1E
00
1A
1F
00
01
03
1D
00
1E
1D
03
19
00
1B
00
1F
00
00
00
1B
1F
18
1F
1D
1E
04
00
03
1F
03
1F
00
12
19
1C
05
1E
19
1D
1D
1F
1F
03
1D
1C
00
00
1B
1B
03
00
02
05
07
02
1C
01
01
02
1C
03
08
1D
00
1F
1C
07
03
1D
1D
01
1B
1E
1E
19
01
1F
1C
05
1F
1E
06
01
03
02
00
01
1F
05
04
01
1B
00
00
02
02
03
01
1B
1D
04
1A
1F
03
1F
1F
03
1C
00
02
16
04
1D
09
05
1E
1F
04
01
1C
06
04
02
00
03
05
1C
1C
1E
1B
02
07
1D
1E
1A
07
1D
04
03
06
19
19
00
03
1F
1E
1D
03
01
05
1A
1D
1C
1F
05
1A
18
1A
03
1F
1E
1E
1F
1F
03
03
1B
1D
01
08
1F
00
01
1F
1F
1E
00
19
00
1D
1F
1B
1D
00
1D
00
03
01
06
1F
1E
1C
02
1C
1C
02
1D
03
01
1C
02
1E
00
1F
1D
02
05
1B
1D
1D
00
1E
1A
1C
1B
06
05
1C
1A
19
00
02
04
1B
03
1E
02
1E
18
1B
1C
08
18
18
1C
1C
02
03
03
1C
1D
04
1E
15
1E
00
1F
01
18
19
02
1A
00
1B
02
1E
01
01
1B
1C
1D
1F
1B
01
1F
1D
1E
1B
1D
1D
1C
1A
17
02
06
1C
1E
1F
02
03
01
01
1A
00
04
1D
04
18
1D
1B
1C
15
06
01
1F
00
04
18
01
19
02
00
04
00
18
1D
1D
01
03
1A
15
01
1F
1E
02
1E
01
1B
1D
1C
07
04
18
00
1B
1F
1E
1F
00
17
00
19
01
02
1F
04
1E
1B
02
1E
1D
1F
01
01
01
1D
1E
0B
1C
1F
1F
02
01
1F
02
01
00
1B
02
1C
1C
1F
01
1C
03
1F
1C
01
1A
1C
1B
02
00
03
02
1F
1E
1D
00
00
05
1A
1E
07
05
1D
1F
06
1E
1B
1F
00
1F
02
1B
02
1D
02
00
02
1A
1D
02
05
03
01
04
08
05
1F
1C
1D
03
1F
1B
04
01
02
01
00
1C
1F
00
00
01
03
05
1C
1E
07
1F
1F
1F
03
1F
03
03
02
06
1C
1E
02
1E
1D
00
03
04
1E
00
1D
1B
1B
1C
1E
1C
04
09
08
02
1E
1D
1F
1C
00
1E
01
1C
1A
00
00
04
02
03
1D
1A
1D
04
00
00
1E
1F
18
1F
1A
00
1B
02
01
01
00
1A
02

