1F
00
00
1F
1D
1F
00
1F
1D
1D
1E
1E
01
1B
1B
1F
1C
02
1F
02
1F
02
00
1F
01
04
03
1F
19
1E
00
01
1F
1D
1B
00
1C
1F
1E
1E
00
1E
01
1F
1D
1E
1F
01
02
1C
03
1C
00
02
1B
09
08
01
06
1B
1B
01
01
1F
00
1C
00
00
18
00
01
1D
1F
00
00
1E
01
1F
00
00
00
01
1E
01
01
02
1E
02
1F
01
1E
1C
03
1E
1F
1E
1D
00
01
1F
01
04
00
1F
1D
01
01
01
1E
00
1F
00
1E
1F
1F
1E
01
01
00
1F
1F
01
00
1E
06
00
1F
1F
00
00
1F
00
1E
00
1F
1E
01
01
1F
1E
00
1E
1F
01
1E
00
1E
1E
00
02
1E
1D
02
1F
03
03
01
18
1A
09
01
00
1F
1F
03
1F
16
00
1B
04
02
01
1B
1D
1D
1D
01
03
02
1F
1D
1F
00
1F
1F
1E
00
1E
00
1F
02
04
00
00
1E
00
03
1F
00
00
02
02
1B
1B
1F
1E
1F
00
1E
01
00
1F
00
1E
00
01
01
01
00
1F
1E
01
1F
01
1F
1F
1F
00
00
1E
00
1F
1F
1E
01
02
1E
1E
00
1F
00
1F
1F
1F
1E
1F
1F
1F
1E
1E
1F
01
1F
1F
1F
01
1E
00
1E
00
1B
00
02
1F
1F
19
04
08
14
19
01
06
1D
00
01
1C
01
1E
1F
1F
00
1E
02
00
1E
1F
1F
01
1D
1F
00
00
1F
1F
00
1F
1F
1F
00
01
00
00
1E
01
00
01
1F
1D
03
01
1F
00
00
01
00
00
00
01
1F
1E
00
01
00
1F
1F
1F
1E
01
01
00
1E
1F
02
00
01
00
02
06
02
01
03
05
1C
00
1F
01
00
05
00
1F
01
00
04
1F
02
1F
02
00
01
1F
03
1F
00
1C
01
04
00
03
05
01
02
01
1E
1A
02
00
1C
19
1F
07
14
19
1E
19
03
00
1F
01
1C
1D
1F
1C
04
01
00
01
00
00
00
01
1D
00
1E
1E
1E
1E
01
01
01
1E
00
01
00
00
02
02
1D
01
1D
1E
1F
1F
00
1F
1F
1E
00
00
1F
1F
01
1F
03
1F
1E
02
1F
02
1E
1D
1E
1E
1E
1D
1E
1C
1B
1F
1C
00
00
1B
1C
02
1F
1D
02
01
1F
1E
1B
00
1F
01
1F
1D
1B
01
1E
00
00
1C
00
02
02
00
01
01
03
01
1C
1E
1F
1A
01
13
1C
0C
06
1B
01
07
1D
00
00
00
05
02
1E
00
1A
1E
04
00
1F
1F
1E
01
1F
1E
1E
1F
00
1F
00
01
00
00
01
03
1E
06
01
1A
02
1F
1D
01
01
01
00
1F
00
03
00
1B
1F
04
1F
1D
00
1E
00
1F
1F
1F
01
01
01
00
00
1F
1D
1E
1E
1F
1D
1D
04
00
1D
1C
1D
1C
1F
1F
1D
1F
1E
01
1E
00
1D
00
01
01
01
1F
1E
02
1C
1E
00
1C
1F
1E
1E
1B
1F
13
08
1C
1C
00
19
16
1E
06
1C
01
1E
1F
1E
00
00
03
1D
04
1D
1D
1D
00
1E
00
1F
1E
02
1E
01
00
1E
01
1F
00
00
01
1F
1D
1F
19
1B
01
1D
1E
04
00
1E
1F
1F
1F
00
02
1F
03
1E
1D
1E
00
00
00
01
00
00
00
00
1F
1E
1E
1E
1E
1F
1B
1D
1E
1D
1E
03
19
1D
1F
1D
1B
1F
00
1E
1D
1D
00
1E
1F
01
01
1E
00
1D
1E
1F
03
00
1D
00
00
1C
02
1F
03
02
06
01
03
05
13
1D
00
05
01
1C
00
1B
00
00
1D
03
02
1F
01
01
1D
02
02
01
1F
00
1F
1F
00
01
01
00
00
1F
1C
1E
1F
1F
00
00
1D
00
1F
02
02
1F
1F
00
1F
1F
01
00
1F
00
1F
03
1F
1F
01
1F
00
1F
00
01
1F
00
1E
01
1F
1D
1F
1B
00
00
1D
19
1E
00
1D
04
04
1F
1D
00
1F
1F
1F
01
01
00
00
1F
00
1F
00
1F
00
1F
02
01
1C
1E
01
03
03
1D
1C
17
04
08
07
1D
1D
00
1F
0A
04
06
1A
00
1F
1F
1E
01
1F
00
00
1E
1F
1F
00
00
1F
1F
00
1F
00
00
1E
1F
1F
1F
00
00
1F
1F
00
1F
00
1F
1F
1D
1F
01
02
1F
1F
00
00
1F
1F
00
00
1F
1F
1F
1F
01
1F
00
1E
00
1F
1F
02
00
00
01
1E
1F
19
1A
02
1E
1E
1F
01
1D
1D
04
1D
1D
1F
1E
00
1C
1F
1E
1E
1F
01
1E
01
02
1D
03
1D
1F
03
05
06
1E
1D
02
02
01
01
1C
02
00
04
09
1D
1D
01
00
00
1D
02
01
00
01
03
1E
03
1D
00
01
00
03
1E
01
00
1C
01
00
1F
1B
1F
1F
1F
03
01
1E
1F
1A
1C
1D
03
19
1C
05
1E
02
1F
1E
01
1E
1F
1E
00
1E
1E
1F
1F
1E
02
01
02
1F
00
1F
1E
00
01
01
02
02
01
02
1E
01
00
1F
02
1F
1F
1E
00
03
02
00
1F
00
00
1F
01
1F
1D
1F
01
00
1E
1D
1C
1E
02
1C
1C
1C
1E
01
1D
04
06
1B
0C
1B
04
02
02
01
04
00
1D
00
00
00
00
1D
1D
00
1F
00
01
00
1F
1F
1F
01
1A
02
00
02
02
01
00
1F
1B
01
03
1A
1D
00
15
19
02
00
01
04
1A
1F
1E
1F
02
1D
01
1D
01
02
1A
02
04
1F
01
1F
1F
00
00
1F
1E
01
1E
1E
1E
00
01
00
1F
1F
01
1E
01
01
04
01
03
1F
01
02
1F
01
1E
02
01
00
1D
1E
1D
1E
00
1E
1F
01
1F
1E
00
1E
02
1F
01
04
1B
01
03
1C
1F
03
1D
1D
1A
1F
1A
1F
02
1F
02
1B
00
1C
1D
00
06
1F
1D
1F
00
00
1F
1E
01
1F
1F
01
1E
01
00
02
1F
1D
1F
04
1D
1F
03
00
03
1C
1D
1A
00
01
1E
1E
1E
00
01
1F
1C
03
00
00
00
01
1E
1F
1F
00
00
1F
1F
1F
1F
00
1F
1E
02
00
01
1E
01
01
02
04
02
1F
00
00
01
01
1F
1E
01
01
00
00
1F
1F
1E
1F
05
1F
1D
1F
1F
1C
01
1E
1F
05
04
07
12
02
07
1C
1B
1F
1E
02
03
03
1E
1E
00
01
01
02
1D
04
01
1D
1E
00
1F
00
1D
00
01
01
00
00
00
1F
1D
00
00
1C
00
1D
1C
1D
02
1F
1E
01
1D
01
00
1F
02
1D
1D
1D
1F
02
1F
01
00

