3F
01
3D
3E
01
01
3F
01
03
03
01
00
3F
00
3E
3E
04
00
01
03
04
03
03
03
00
01
3F
3F
3E
3E
01
01
3E
3C
01
00
00
00
3F
3F
3C
3F
00
03
00
3F
01
01
01
3F
3E
3F
3A
00
3C
02
05
3D
01
00
00
02
3F
3C
01
3F
02
3F
3F
3F
02
01
00
01
3F
00
01
3F
3F
03
3F
3F
02
01
3E
01
3E
3D
00
00
3C
02
3C
01
02
00
00
3F
3F
3D
03
00
00
01
3E
00
01
00
3F
00
00
00
3D
3F
3F
3F
3D
3F
3D
3F
00
01
03
00
3E
3F
3F
00
00
3F
3B
3F
01
3F
00
00
00
00
00
3F
02
02
3F
3F
03
3C
00
00
3C
3F
02
3F
3E
00
3F
3E
00
05
3E
03
3C
00
02
01
3E
3F
3D
3E
3F
3D
01
01
3D
00
3D
3F
3F
02
3F
3F
00
00
3F
00
3F
00
3F
02
01
01
00
00
01
3F
01
3F
3D
3F
00
3F
3C
01
3E
00
3F
3E
00
01
3E
3F
3F
01
3F
3E
3F
00
00
3C
04
01
3D
3F
00
3B
00
00
00
01
00
00
00
00
3C
00
3C
3B
3C
00
3F
00
3E
3F
05
01
02
00
00
3D
3F
02
01
00
3E
02
3F
3F
01
01
3D
3B
06
3E
02
00
3F
08
01
3A
36
01
06
12
3F
01
01
39
3D
3C
01
04
3F
00
3B
05
3E
3E
3B
00
3F
3E
02
00
3A
3F
3F
3C
3E
3E
3E
3F
00
3D
3E
05
02
3E
3F
04
01
3A
3D
00
01
00
3F
01
3E
3F
3F
3F
01
02
3C
3F
3F
00
3D
00
3F
00
01
3F
3D
3E
3D
3D
3F
3C
3F
01
04
3E
3D
3D
3C
3C
3A
3D
3F
01
3C
3F
3E
00
3F
01
01
00
3F
01
3F
3F
3E
00
3D
3F
3F
3F
00
01
3C
00
09
36
3E
06
01
3A
03
07
3D
3C
37
07
03
04
3F
39
3E
01
03
3E
3F
01
03
3E
01
02
3F
3E
01
00
00
02
01
00
00
00
00
00
3E
3A
00
02
02
3F
03
02
01
3F
3F
00
00
00
3D
3F
00
3E
3E
3E
00
00
3F
3F
02
3F
00
3F
00
3E
3E
3C
3F
00
00
3E
05
3F
03
3F
3E
3F
3D
3E
00
3E
01
3E
02
01
3E
00
3F
3E
3F
01
01
3F
04
3A
3D
00
3C
3E
03
02
01
3F
00
00
3C
3C
03
08
3F
01
07
3E
02
3E
3C
3C
3F
3E
3E
03
03
01
3B
3F
02
03
3E
3E
00
00
3F
00
00
00
01
03
00
3F
00
00
01
01
3D
00
00
3F
3F
00
01
00
00
3F
00
00
3E
3F
00
3F
3F
00
3F
01
3F
00
01
3F
3D
3F
3F
3F
00
3E
00
3F
00
01
01
00
01
00
01
3E
03
00
02
3D
00
01
00
01
01
01
3E
00
01
01
01
3F
01
3F
00
3D
00
3E
3D
3F
01
00
01
02
01
00
02
3D
0A
07
36
06
02
3F
3E
05
3F
38
3F
03
3F
01
00
00
3F
02
02
3F
01
00
00
01
3F
00
01
3F
02
3F
01
3D
02
00
3F
01
3E
02
3B
3F
3C
3E
00
3F
02
3F
3F
3F
00
3F
3F
00
00
3E
00
3E
01
3E
02
3E
3C
3F
00
3F
3E
01
3E
01
01
01
00
01
01
3F
3A
3D
03
00
3D
36
03
3E
01
00
00
03
00
00
00
00
05
3F
00
3E
05
3D
3C
3B
01
3F
3F
04
00
01
03
02
3B
04
02
3F
0D
00
0A
3F
00
03
01
03
3E
00
00
03
01
00
3E
02
00
02
3E
3F
3F
01
3F
3D
02
00
3E
02
3F
3F
01
01
01
00
3F
3B
38
00
04
3E
05
3B
01
3F
00
3F
00
01
3E
00
00
3E
02
3D
3F
00
3E
3D
01
00
02
00
02
01
00
3F
3B
3D
02
01
00
3F
06
3F
02
03
3E
3D
3B
3F
00
3E
3E
3E
3F
3F
00
3D
00
00
03
3F
00
3E
3E
05
00
3F
3F
02
01
01
02
02
01
39
0A
03
3C
00
00
3F
01
3F
00
00
04
01
3B
3D
00
3F
01
3D
3D
00
01
3F
00
3F
3E
3F
3F
00
3F
3D
05
3F
03
01
3B
3F
04
3C
3C
00
3E
3A
00
02
3F
01
3F
3D
01
01
3F
3E
00
3C
00
3E
3F
02
3B
3E
03
00
02
00
3E
3F
3E
3D
02
3C
3F
3E
3D
3F
04
3F
3D
3B
3E
3F
3D
3E
3F
3F
3C
3F
06
00
3E
3F
00
01
00
00
3C
07
3D
04
05
3F
02
00
3E
02
01
00
00
33
07
04
02
3B
3E
08
00
06
3C
04
01
3E
02
3E
01
00
00
02
3B
02
02
3E
3D
00
3F
00
00
00
3F
3C
3E
01
00
3F
3C
3E
01
00
3D
01
3E
03
3F
3E
01
00
00
3D
00
01
00
3D
3F
3E
3F
3E
01
00
3E
3F
03
00
3E
3F
00
3F
00
3C
3F
3E
00
00
04
01
3E
3F
00
3E
3A
3E
3C
01
3F
3D
00
01
02
00
3F
3F
3F
02
3F
3E
3C
03
04
05
03
00
00
3C
3C
3F
3D
01
04
06
38
3D
3C
0F
00
3E
3C
33
08
3F
3E
3C
01
05
3D
3C
3D
00
00
3F
3B
00
3F
3C
02
03
3D
3F
02
3A
00
3F
3D
3E
3D
3C
03
07
3F
3E
3C
3D
39
02
3B
00
3F
3F
01
00
00
00
00
00
01
3F
3F
3F
00
00
02
3F
04
3E
3F
00
3E
3F
3C
01
01
3F
03
3E
03
3F
00
01
00
3F
02
3F
00
3F
00
3F
3F
00
00
3F
3D
00
3F
3F
3E
3B
04
01
3A
3F
02
03
3E
3E
03
00
3F
01
3D
04
37
00
00
3D
3D
3E
3B
3C
3F
3E
01
01
00
3F
3E
01
00
3F
3E
00
3F
39
03
00
01
3F
01
3E
01
3E
3E
3F
00
01
00
00
04
3F
3E
01
00
02
00
00
00
01
3E
3F
3F
00
00
3F
00
01
3F
3F
01
00
02
3F
3E
3F
3F
3F
3E
3E
3D
3E
00
3A
3D
03
01
00
00
3E
00
04
3E
3E
01
3F
00
02
3D
01
00
00
03
3F
3E
3C
3C
3E
04
04
3C
01
02
3B
3C
3F
3A
38
37
07
3D
00
3F
35
3A
3B
01
03
3E
3A
3B
01
00
06
01
3F
3A
3F
03
00
3A
02
3F
3F
03
02
01
3F
00
3C
01
3F
3B
3F
03
3F
03
01
3F
01
02
38
03
02
3D
3D
00
3F
01
3E
3D
00
02
02
3F
3E
3F
3E

