3D
3F
3E
3E
00
00
3E
3F
3E
3F
00
3C
3C
3D
3E
3F
01
3F
3E
3F
00
3F
01
3B
3D
01
3D
3F
00
3F
3E
3E
00
3F
3F
3D
3A
02
3D
3D
3F
05
3D
02
3E
3F
3F
3D
36
04
39
3D
01
05
3B
01
01
3E
02
39
3C
00
3E
3D
01
00
3E
3F
3D
3E
3D
3A
3E
3E
3D
3E
3F
02
3F
01
3F
3F
3F
01
3C
3F
3D
3D
00
00
3E
03
02
3F
02
3B
3D
3E
3E
3E
3F
01
3F
00
3E
3F
3F
3D
3D
3F
01
3F
01
3E
3E
3E
02
3F
3F
3C
3B
05
02
01
03
3E
3E
3C
3E
3F
00
39
3E
3E
00
01
02
3E
00
3F
3F
3F
3E
3D
03
39
02
02
00
3C
3A
05
01
00
3D
01
3F
03
05
3F
3D
00
00
01
3E
3F
3E
03
00
02
3D
00
04
3C
00
03
3D
3E
3D
3F
00
3E
00
00
03
3F
01
3D
05
00
3F
02
02
02
02
05
04
3E
04
00
3E
3F
02
03
03
01
03
3F
01
3C
03
3E
02
01
02
00
3D
3E
3E
3F
01
01
3E
00
3F
3F
3F
00
39
3C
37
3D
03
03
3C
03
3D
3E
3F
3F
3D
3E
3E
3F
02
00
3E
3F
3D
00
39
3F
00
3E
3E
3F
3E
03
00
3E
01
01
3F
03
3B
3A
3B
38
09
3F
07
01
39
05
3B
03
04
00
3F
3F
00
01
3F
3E
3D
3F
3A
39
00
00
00
00
00
00
3F
01
3F
3F
00
00
3F
3E
00
3F
00
00
00
3F
3D
3F
3D
3F
04
01
02
3F
3F
3F
00
3D
3C
3F
3F
3E
3E
00
00
01
3F
00
3E
00
00
00
3F
02
3D
3E
3C
3F
00
02
3E
3E
00
3F
3C
02
3E
00
3F
00
3F
00
3E
01
00
00
3D
01
3F
3D
3C
3F
3F
02
3E
00
3F
3F
3E
3D
3E
01
3B
38
02
04
3E
01
3E
3F
3F
3D
01
00
3D
00
01
02
3C
3F
3E
3E
3F
3B
00
3F
02
00
3D
02
3F
00
01
00
00
02
3D
3F
3C
3C
3F
01
03
01
3F
00
00
00
3F
00
3E
3F
00
01
3F
3F
3E
3F
3E
3E
3C
01
3E
3D
00
01
3E
00
3F
3F
01
3C
3D
3F
03
3F
00
3F
03
3E
02
00
00
3B
3E
3E
01
3F
3F
3E
01
3E
3F
3F
02
3F
3E
3A
3D
3F
01
3E
00
03
3B
3F
3E
3C
0B
03
05
06
3D
3D
35
38
0A
03
08
39
02
3E
03
3C
3D
3B
04
3E
03
01
3F
02
00
02
3E
00
00
3F
3E
3E
00
00
00
00
01
3D
02
01
3E
3E
01
3E
3D
3F
00
3F
00
3B
02
01
3E
3C
02
3E
3D
3F
3F
3E
3E
04
3F
3E
01
00
00
00
04
3F
3F
3F
03
3B
00
04
3A
3F
3C
00
3A
3F
3F
3D
3D
3F
00
3D
01
02
00
3D
00
00
3E
03
07
03
02
03
37
01
3A
3F
03
00
3F
01
36
3D
00
3B
09
00
06
00
37
00
00
05
06
04
02
00
00
04
3E
04
00
3F
05
3C
3E
03
02
01
00
00
03
3E
3B
3F
03
02
3F
00
00
3C
3C
01
01
02
3E
3F
00
3C
00
3F
00
04
3E
3F
3D
3E
3E
3F
3F
3E
06
02
01
3F
00
3B
3E
00
00
00
01
01
39
3C
00
01
3F
00
3F
3F
3E
3F
3F
3F
3D
3F
00
3F
03
3F
3F
3F
3F
3F
3D
01
00
03
3F
01
3D
00
3F
3E
00
00
02
00
3C
02
00
3C
05
09
39
05
02
3F
02
3C
3B
3D
3C
39
01
00
3F
01
01
00
05
01
04
01
3F
3E
3E
00
3D
3E
04
00
3E
01
01
3E
01
3D
03
3E
3A
3F
3A
3F
3B
00
3E
3F
00
3F
00
00
00
01
3E
3F
00
3E
3C
00
3F
3E
3F
02
3E
02
3D
3F
3F
00
07
02
03
00
3E
3E
3D
00
3E
00
3E
02
00
3E
00
3C
00
01
01
01
3F
3F
00
3E
3F
38
3D
3D
02
3F
3F
01
39
3E
3D
3F
3F
00
38
07
02
04
3E
00
01
00
08
3D
3D
01
3D
3E
3F
02
00
02
3F
00
05
02
00
02
00
00
3D
01
3E
02
00
00
00
3E
02
3E
3F
00
02
3E
3E
3E
3E
00
3E
01
3F
3D
3E
3F
00
00
3E
02
02
00
3F
3F
3F
06
00
3F
3E
01
3F
00
02
3F
3E
3E
3F
3D
02
01
3C
3D
02
3B
3F
3F
3B
3F
00
01
01
02
3E
3C
00
00
3F
00
00
00
01
01
01
00
3E
3E
00
3F
00
01
3C
03
01
13
01
3F
04
3D
39
03
35
00
3E
04
01
04
01
02
3D
02
00
01
39
3F
3B
3D
3F
00
00
00
3E
00
3F
3E
01
3F
00
01
3F
01
01
00
3D
00
01
3F
3D
00
00
01
3E
3F
00
01
3E
00
3F
02
3A
3F
3E
3E
3F
3D
3F
00
00
00
3D
3F
3D
00
3E
01
3E
3B
3D
3F
02
01
3F
3F
03
3F
3F
3E
00
3C
3F
00
01
3F
3F
01
3D
00
3F
00
3E
04
01
00
3E
02
00
00
04
3F
01
3E
09
07
0B
01
3F
3A
02
3D
00
04
02
3E
3C
03
3E
3F
00
01
03
01
3C
3E
05
39
3F
3E
01
3F
3D
02
3F
00
3F
00
3F
01
3D
00
00
3D
00
00
03
3F
3E
3E
03
3F
01
02
00
3F
3F
3F
00
01
3C
3F
3F
3B
05
00
3F
3F
00
3C
00
00
00
00
3F
02
02
03
00
01
3B
3F
01
01
3E
3F
03
03
3F
00
3F
00
3F
3F
3F
00
01
00
3B
3F
3D
02
3F
3F
01
3C
04
00
3E
3F
3E
3C
05
3C
0A
10
01
30
0C
34
03
11
00
3A
3D
01
3C
01
03
01
3A
00
3D
3F
3E
3C
3E
3F
3E
3D
01
3F
00
3D
02
3F
3E
02
3B
01
3E
3F
00
00
00
00
3F
3F
3E
3E
3E
00
3F
00
00
00
3F
00
01
3F
3E
01
02
00
02
01
3D
3E
01
3F
00
3F
3F
3E
01
01
02
00
00
3F
3E
3E
00
3F
3E
3D
01
3F
01
3F
01
00
00
00
3F
3F
04
01
00
3C
02
04
00
00
3C
3C
01
00
02
3F
05
00
3A
37
3B
04
37
03
39
00
3A
3E
3D
3F
3E
3C
3F
03
00
3F
3C
00
01
00
02
3E
01
00
00
00
3E
04
3F
3F
3E
3F
00
03
3D
3E
01
00
3E
02
3E
3F
01
3F
3E
00
3C
3E
3F
01
3D
02
00
3F
3F
3F

