3C
3B
3C
3C
3E
3D
03
3D
06
3D
01
03
3B
3D
37
01
3C
02
00
00
3E
01
02
3C
3B
3E
3F
3D
3E
3E
3D
3F
03
3F
01
04
38
03
3D
3A
3C
3B
3F
3A
05
00
01
01
3A
01
3D
01
01
03
04
38
3D
00
3B
36
3C
00
3D
00
03
3E
3E
3D
08
3E
3F
3F
3D
03
00
3E
01
3F
02
3E
01
02
3F
3F
01
3F
00
02
01
3E
06
04
05
3E
3E
39
3E
3F
03
3D
3F
3C
01
3D
3F
00
3E
00
3E
04
00
3C
3F
00
00
3F
3F
01
00
3F
3E
3D
02
02
00
3E
00
05
00
3D
3F
3E
3E
3E
02
3E
3F
3F
00
00
03
3D
3F
00
3D
37
02
3A
04
00
3F
3D
05
01
3E
00
39
02
3D
0E
0F
3C
3D
05
00
3E
07
09
3D
3E
04
3B
3C
05
01
01
07
3F
00
3F
01
3B
06
3B
3C
3F
02
04
00
00
3F
3E
3D
3F
3B
03
3F
01
02
3F
01
3E
01
3D
3B
3E
02
3F
00
01
02
01
3F
01
3F
00
00
39
3F
3E
3F
01
3D
3F
3E
3E
00
01
03
3D
3E
3E
3F
05
03
01
3A
01
00
3D
01
3E
3F
00
3F
00
00
3F
00
3F
00
00
00
02
3F
3F
3D
00
00
3D
3F
3F
3F
3F
04
00
06
3F
02
04
3D
37
3E
3E
3E
08
06
3F
00
00
02
02
00
02
00
3F
3E
3E
03
04
3F
3F
00
01
3E
3C
00
01
3F
3E
07
3A
3F
01
02
06
01
00
3B
00
3F
3C
04
3E
00
3E
3C
3D
00
01
00
01
00
00
3E
01
3F
3F
01
00
00
3E
00
3F
3F
3E
03
03
3F
3B
00
3C
3D
3E
05
00
01
3F
3F
02
3D
01
3F
00
3F
3F
3F
00
00
00
01
00
3B
3E
02
00
3E
3E
04
00
00
02
09
3D
08
3A
00
3F
35
03
37
05
10
39
3E
01
3E
03
01
3C
00
3F
3E
00
01
00
00
03
3C
01
01
01
00
01
3E
03
01
00
02
3F
01
3E
3F
38
00
04
08
3F
3E
04
00
3F
3E
01
01
02
01
3E
3F
3E
00
00
3D
3D
3F
3B
3F
07
3E
3F
38
3F
00
3F
01
3F
02
38
3F
02
00
03
03
3F
3E
3E
3F
3E
3D
02
01
07
01
01
01
3C
00
3D
00
3E
3E
3C
00
08
3D
3F
3E
3F
01
01
36
02
3A
3D
00
05
3C
3D
31
3A
01
00
05
01
03
03
01
0B
3E
04
3D
00
3E
3D
00
3D
00
3E
3F
08
3F
03
3C
00
3F
3E
02
3E
01
3E
3B
07
02
03
02
3E
3F
02
02
3F
3F
03
00
08
00
03
3E
00
3F
3F
3F
3D
3D
01
3D
3F
3E
00
3F
3D
01
03
39
00
3C
3B
3B
03
3C
3D
3E
01
02
00
3B
3F
3D
01
02
02
3D
3D
3F
00
00
3E
3A
3F
39
03
3F
00
3F
00
3A
3E
01
00
38
3B
06
37
3B
06
3D
3F
03
02
3E
02
3E
00
00
3F
04
03
3E
3D
3F
3D
3F
3D
39
03
3F
01
02
03
3E
3C
3F
3F
00
3E
3C
01
00
3E
03
05
3E
3E
3B
02
3F
3F
3D
02
02
3F
01
00
3D
00
3F
00
3F
3F
00
01
3B
04
00
3E
00
3F
3D
3F
00
00
3D
00
3E
03
3F
3D
3D
00
3D
01
3F
00
3C
00
3F
3F
01
3F
3D
3E
01
00
00
3F
00
00
00
3D
3C
3B
3F
3F
02
3F
00
00
3E
3E
3B
02
03
3F
3D
3E
36
01
00
01
39
3F
02
3F
3F
3C
3F
03
3E
01
3E
00
3C
02
3E
00
01
3E
00
3E
3F
01
3F
01
3F
3D
00
3F
02
3E
02
00
3F
3F
3F
3D
3B
3F
3E
00
00
00
02
00
3F
3F
3F
3E
3E
3F
3D
3D
3C
3D
3E
01
3C
01
00
00
3D
3F
3F
00
3E
3E
3C
02
3E
3E
00
3F
3E
3C
00
3D
00
00
3F
3F
3F
00
3F
3F
3B
3E
3A
03
06
3D
3C
3E
3F
04
00
3D
01
3B
3D
07
07
3B
04
09
3F
3A
3F
3F
3D
3C
02
3F
3D
03
3D
3F
05
3E
00
3D
3C
00
02
3E
3E
02
00
02
3E
3F
00
3D
3C
03
3F
3E
3E
3D
3E
00
00
01
00
3E
3C
01
01
3D
01
02
3C
00
3F
02
3E
3F
00
3E
01
00
02
02
06
3D
02
01
3F
3D
3E
3D
02
01
05
04
03
3E
01
03
3C
3F
06
02
00
03
3E
00
00
05
3F
3E
3F
01
03
03
02
3C
3B
02
3E
3F
3C
02
3F
01
3A
3F
38
0A
05
3F
3C
37
3E
0C
3D
3E
3E
3E
3A
3E
00
3C
3F
3D
39
02
01
04
02
3F
01
3E
3F
3C
02
00
3F
01
3F
01
3F
3F
3B
02
00
02
00
00
3E
3D
02
3E
02
01
3D
01
3F
3F
02
3F
00
3E
01
00
03
04
03
00
02
3E
3E
00
3E
00
3E
3E
08
03
01
03
01
3F
02
01
3C
00
3F
3E
03
3F
00
00
3E
3E
01
02
3D
00
3F
3F
05
03
00
02
00
3F
00
01
00
3E
00
3F
3E
04
00
04
00
3F
3A
03
3D
3F
3F
3F
02
01
3F
00
3C
3E
00
01
3E
00
00
02
08
3F
3F
00
3F
3E
00
00
3F
3F
00
01
06
03
3F
00
3F
3E
3F
00
3F
3E
00
01
06
3F
3D
3F
3E
3E
01
00
3F
00
00
00
3E
3E
02
3C
02
03
01
3F
00
01
3E
3C
05
3C
01
02
03
02
03
01
3E
3D
3E
3E
3F
3E
01
3D
3E
00
01
02
00
3F
3F
3E
05
00
05
3C
00
02
00
3F
00
01
3E
3F
02
3E
3D
05
03
01
01
3F
3B
3E
00
01
04
3A
3F
02
3F
01
01
04
3E
01
3F
3E
04
3D
01
3E
3E
3F
02
02
3F
00
3F
3F
05
3C
3E
00
3E
04
00
01
3F
3E
00
3E
04
3D
3E
3F
3D
01
00
00
00
00
00
00
3D
04
00
00
00
3D
00
00
00
3F
00
3F
3E
3E
3F
3F
00
3D
01
01
3F
03
3F
3E
00
3E
3E
02
3F
3E
01
01
3E
3F
00
00
3D
3B
00
01
00
3F
3F
01
00
3F
3F
3F
3C
3E
07
3F
3C
34
00
3E
04
01
3D
3C
3C
01
3D
01
00
3E
3F
3D
3D
3F
01
3F
3D
03
3F
02
3F
3D
3F
01
3F
3E
00
3F
3E
3D
3E
3E
3D
38
03
02
01
00
00
00
3F
01
00
00
01
3D
3F
3F
3F
3E
3F
3E

