3F
3A
04
3F
00
36
39
08
3B
2E
01
3D
3E
3F
03
01
05
01
3F
3D
07
3C
01
07
3F
01
37
3E
3F
3B
07
01
00
36
00
3C
3D
3E
38
00
3E
0E
08
01
3E
0D
14
02
09
02
3B
3F
01
01
0A
02
01
3C
03
06
34
3B
02
02
0F
3E
07
09
02
01
00
02
3F
04
3B
3C
02
3F
3E
24
3A
07
00
3E
30
3E
03
3F
09
04
05
3F
01
3D
03
02
05
3D
05
01
3F
08
00
39
02
00
36
38
3C
06
05
3B
35
02
00
01
3F
3B
01
03
37
03
3F
00
3D
3D
08
33
3F
3B
34
36
3B
0A
3D
37
39
03
38
00
00
00
05
3D
3C
00
3C
3F
3B
3C
3B
3A
3D
3C
36
3D
02
3C
36
01
00
02
37
3D
00
3A
3D
3C
07
3E
3D
02
3E
09
3D
3A
07
3B
3F
3D
3F
03
3A
04
3D
02
3E
11
06
0D
01
39
01
05
04
3C
3E
07
3A
02
02
34
3D
00
04
05
3C
3C
05
3C
06
38
3A
3D
07
3C
3C
3F
3E
3F
01
07
3E
00
00
37
09
09
0A
3F
37
00
3A
39
3C
3C
15
3B
00
3A
00
01
3F
3E
36
38
3B
3B
3B
02
00
01
03
03
3F
3E
35
3C
00
04
3F
37
01
07
3D
00
01
3F
3B
3F
09
08
00
01
08
00
07
3E
04
02
3D
01
01
02
02
3F
32
00
39
3E
04
00
02
3C
3C
02
01
3F
04
00
3B
01
01
3E
0C
04
38
36
3F
01
3A
3C
35
08
06
01
06
0D
38
33
00
07
3A
01
02
3F
3F
00
3D
08
3B
04
01
04
3E
05
3F
03
00
3B
38
39
38
02
02
00
31
3B
00
3D
3C
00
39
08
04
02
03
02
02
06
01
03
3F
03
3D
31
03
04
3F
39
03
3D
0B
04
00
3E
00
02
05
3D
3E
07
00
04
3C
3C
37
00
3A
00
3F
00
3A
00
02
39
05
07
04
3C
01
02
02
38
3F
07
3D
02
38
3E
03
01
3D
05
36
3D
02
02
06
06
0D
02
3E
01
0A
09
01
02
06
3E
3E
02
00
3E
3F
00
35
03
35
02
00
3A
0C
04
3F
3C
3F
01
02
02
39
05
00
02
37
3D
3A
3C
05
00
3A
00
3E
03
05
3B
00
10
3D
37
38
05
08
38
02
3F
3F
03
3F
00
3E
3F
0F
3D
3B
3E
06
0B
3F
3C
3E
06
3F
39
3E
07
3D
04
33
3A
05
01
03
38
38
3E
04
00
3D
3C
3D
00
3E
07
3F
00
0A
3D
01
00
03
3B
3E
00
33
3C
04
05
36
08
02
0B
33
08
3F
34
01
01
39
08
39
00
06
3F
04
3F
0C
03
3E
01
3B
0A
02
03
0A
3F
3E
3B
00
01
04
01
02
09
3D
04
3A
3D
36
33
3D
3E
39
3F
02
0A
35
3F
00
3F
3A
39
00
3E
3B
3F
01
00
00
07
34
3B
37
34
08
03
3B
03
00
3E
3B
3A
00
3B
3C
3E
07
01
3B
3A
05
03
05
3F
36
3F
02
08
02
3E
00
3C
01
3A
38
06
3C
00
34
07
05
39
01
07
0D
3B
3F
01
3F
3F
37
37
3C
3D
3B
37
38
03
3B
00
07
00
09
3F
07
01
00
02
39
08
3D
01
08
06
09
05
00
3F
01
03
3E
36

